//ROWS=20,COLS=20,START_INDEX=0,END_INDEX=400;
7fd9387e
00005f3a
0001a9b6
0005d388
003cd3e0
00321472
0026aecd
00173670
00266289
7ffb7c4c
7ff0b774
7ff43b0c
7fcc0bd2
000310d6
0022fd41
0032065f
002720ed
7fe47de7
000c39ca
0015dbf9
000f63ac
7fd40c0e
7feaa41b
7fdfe793
001277ea
0015aa96
0003252e
7fe0c08b
7fd3128a
7fed8c6d
7fecd7c7
00097f31
000d1b66
0036095c
7ff8a050
0056b51a
004bbc55
0024c3a0
00159e5b
00248db0
7fd5570a
7ff6f2a3
0016ef0f
002e700a
7fcb4680
7fcf1543
7ffd72a0
7fe00e29
7ffa1311
0005a1a5
003334bb
7fd9c030
7fef1c3d
0029fe6d
0021d36a
00289197
7fd34b35
00295871
005440df
002838a8
7ff8128e
7fdeb16d
7ff044a0
7ff4d377
002058e1
0011375e
7ff8560b
7fd36858
7fec833f
00170057
7ffc54e5
7fd1885b
7fe7b470
7fe4145e
7fe8b294
000f536f
7ff70a31
7fee5641
7ff31465
7fedd658
7fb9f515
7fbdccb7
7fddb20d
0004f324
00277394
7fefdaa4
001a3b7f
001896b3
7ffd05e0
0029eef7
002a3ca1
001c072f
7ffb2f47
0031a57d
0031617b
0043e9d3
001b5cea
7ffd8e5a
000d2a95
0010c32a
7ffd1d4c
7fd4dc6b
7fe0881c
7fbbe8cb
7fd3a497
7ff8068a
7ff1c715
000262fa
7ff9ebd5
7fe801d4
000128de
7fe0aea8
7fbbb91e
00144999
7ffbd7ce
001b22da
001277b1
00370a78
003faf2c
000b01d6
00085598
7ffda081
0011b258
00240e65
004823a5
7ff5c241
0002613e
004ff2b3
003c21c3
00294199
7fbb6990
7fe29ba6
7fc9249e
7fe19dd2
7ff638b7
000b7e7c
7fe5c535
0019efaf
00298cf6
7fd70a4b
7fc2c759
7fe57a8b
7fc223e8
00077a90
7fe467a1
7fdfc03d
0001cb30
7ffd186e
7ff9c9da
00158a9c
0004b8b4
0010a9d0
003ce891
7ffff166
7ff47167
0011a567
0012b835
7fecde0d
7fe36c7e
7fd474b0
7fcea9ea
00092e91
000399a0
7fedafa2
7ffcd8b2
0009ca19
7ff15a9d
7fcc1d31
000da465
7fdc9369
000b78b6
0007f667
0009c6ce
00498da9
005a776f
00427614
0016fa52
00085814
00041fe6
7fef2cfe
00161630
7fd32597
7fd18e4f
7fd8c4ce
002e70e3
0035d775
7ff0c2d6
003113a1
0037b626
00454ef5
7fd9f247
7fe9de2d
000365cf
00106144
001c21ea
000c55f2
7fc34615
7ff1db46
7fc76a4c
7ffdd5e3
000b9dd8
002d2b1a
0012d857
00229956
002dd64c
00141787
7fc65eac
7fd46354
00020995
7fc26582
7fd43a8f
002ab9b6
7fe597d4
000e5065
7fdc3dd0
7fe43564
0020832b
7fcc7b94
7feaac92
7ff4c757
7fdd8e77
00183da0
7feb730d
001cae08
7fe0aa82
001613e3
000d5151
7ff65313
7fe53048
7ff8c70d
7fddfd5e
7ff145e1
7fdf0d7d
7fe69cc1
7fe01366
00148eca
0001fa19
7fefa8d3
7fe791bb
7fe32fdf
7ffb8d76
7fea03f0
000ccf9e
7fdea995
7ff5be8d
001dc427
7fe52ce3
7ffd31bb
7feab092
0026e255
7fdeafca
7fe88c11
0026d5fe
0027bf6c
00015ac1
0001b116
7fee5e4c
7fdd1fce
7feb993a
7fdb97ed
7fe145a2
7ffa9cea
7fd1fe43
7ffeb1fa
7ffddf35
7ffeb8c3
7fd21270
001d15f1
7fd1a998
000af8b8
7ff1f7d6
0021026e
7fde5d7d
00078e91
0031b4c8
0020ee41
00364250
000db6ff
00273f3e
00615051
00440828
000cc6aa
0050b920
004d6851
7fd2e4aa
7ff0a725
7ffc1f16
7fb28e42
7ff046d5
7fe84345
7fe705a6
0029fe26
7ffcc8df
002012e7
7ffb4f74
0010cf42
000bff6b
00039ab7
001e6a01
0029a1f2
000b5d8a
7fd4c84d
7fd138d7
000ae3d3
7fdc7348
7fe0db44
00096142
7fe0e974
001e0a69
7feff74d
7ff940d2
7ff0f7c2
0034abc6
0036f992
7fe8fc79
00377b1e
7fe3956e
000ed061
00485c48
0043f1de
7fe71c83
7feb7885
7fdf6d91
0019512c
7fe26ec5
0015734f
7ff86895
7fd2fb7b
7ff6e9a9
7fdb9b4c
000c7d5e
7fe483f0
7fc3120e
7fd0e784
7fd54063
7feed578
7ffda694
7fe374e2
7fd7711f
7fdff923
001c65dd
7fcc0b8d
7fddbdf1
000a0e2a
00222a85
0023b116
001c13dc
7fd5e0e6
7fde705d
7fe47131
7fd6a856
7fd27f73
7fcd90c4
7ff3a180
0008eab5
00172ced
00348a3f
00217372
002fbe39
005e8527
00197726
7ffa2122
00134029
00264df8
7fd8c2c7
7ff1758d
0009ead1
7fb80374
7fd5b3ab
003a9f7f
00238694
002a0cde
0039a4b3
001cdb13
7fe6fbf9
7ff3f737
000854df
7ff9269e
7fc80360
000417dc
0007f138
00021cd9
00399b10
001d075e
00440ad6
000d4e52
7fe26e90
0018022f
7ffff4ad
0002fec9
0005cd95
00097629
00204779
0016711e
7fdb6296
7ffa0ad1
7ff45490
7fe818ec
7ff18011
7ff987f3
